TRT-8501-EntropyCalibration2
input: 3f9234fa
/body/stage1/stage1.0/stage1.0.0/Conv_output_0: 3daa1aed
/body/stage1/stage1.0/stage1.0.2/LeakyRelu_output_0: 3c682a20
/body/stage1/stage1.1/stage1.1.0/Conv_output_0: 3dfc741d
/body/stage1/stage1.1/stage1.1.2/LeakyRelu_output_0: 3cabd871
/body/stage1/stage1.1/stage1.1.3/Conv_output_0: 3d49d787
/body/stage1/stage1.1/stage1.1.5/LeakyRelu_output_0: 3d050d17
/body/stage1/stage1.2/stage1.2.0/Conv_output_0: 3d49e219
/body/stage1/stage1.2/stage1.2.2/LeakyRelu_output_0: 3cef6872
/body/stage1/stage1.2/stage1.2.3/Conv_output_0: 3d1e029a
/body/stage1/stage1.2/stage1.2.5/LeakyRelu_output_0: 3cb8dd95
/body/stage1/stage1.3/stage1.3.0/Conv_output_0: 3d17cd96
/body/stage1/stage1.3/stage1.3.2/LeakyRelu_output_0: 3d17cd96
/body/stage1/stage1.3/stage1.3.3/Conv_output_0: 3d52dbde
/body/stage1/stage1.3/stage1.3.5/LeakyRelu_output_0: 3d21ddd9
/body/stage1/stage1.4/stage1.4.0/Conv_output_0: 3df028f0
/body/stage1/stage1.4/stage1.4.2/LeakyRelu_output_0: 3cfc5474
/body/stage1/stage1.4/stage1.4.3/Conv_output_0: 3ce5ea64
/body/stage1/stage1.4/stage1.4.5/LeakyRelu_output_0: 3cc24811
/body/stage1/stage1.5/stage1.5.0/Conv_output_0: 3d8a872e
/body/stage1/stage1.5/stage1.5.2/LeakyRelu_output_0: 3cee6f2c
/body/stage1/stage1.5/stage1.5.3/Conv_output_0: 3d03969f
/body/stage1/stage1.5/stage1.5.5/LeakyRelu_output_0: 3cab3c11
/body/stage2/stage2.0/stage2.0.0/Conv_output_0: 3d2f9fd1
/body/stage2/stage2.0/stage2.0.2/LeakyRelu_output_0: 3cf3a11f
/body/stage2/stage2.0/stage2.0.3/Conv_output_0: 3cae0153
/body/stage2/stage2.0/stage2.0.5/LeakyRelu_output_0: 3c8eedf2
/body/stage2/stage2.1/stage2.1.0/Conv_output_0: 3d316ab8
/body/stage2/stage2.1/stage2.1.2/LeakyRelu_output_0: 3ca3e78b
/body/stage2/stage2.1/stage2.1.3/Conv_output_0: 3ca845e4
/body/stage2/stage2.1/stage2.1.5/LeakyRelu_output_0: 3c439e74
/body/stage2/stage2.2/stage2.2.0/Conv_output_0: 3d1f8844
/body/stage2/stage2.2/stage2.2.2/LeakyRelu_output_0: 3cb9ba88
/body/stage2/stage2.2/stage2.2.3/Conv_output_0: 3c9f58a7
/body/stage2/stage2.2/stage2.2.5/LeakyRelu_output_0: 3c51cc23
/body/stage2/stage2.3/stage2.3.0/Conv_output_0: 3d264f58
/body/stage2/stage2.3/stage2.3.2/LeakyRelu_output_0: 3cbd5663
/body/stage2/stage2.3/stage2.3.3/Conv_output_0: 3cacb200
/body/stage2/stage2.3/stage2.3.5/LeakyRelu_output_0: 3c49b6d4
/body/stage2/stage2.4/stage2.4.0/Conv_output_0: 3d27681d
/body/stage2/stage2.4/stage2.4.2/LeakyRelu_output_0: 3cc85def
/body/stage2/stage2.4/stage2.4.3/Conv_output_0: 3cb05ca5
/body/stage2/stage2.4/stage2.4.5/LeakyRelu_output_0: 3c72daf1
/body/stage2/stage2.5/stage2.5.0/Conv_output_0: 3d2d53c5
/body/stage2/stage2.5/stage2.5.2/LeakyRelu_output_0: 3cc33277
/body/stage2/stage2.5/stage2.5.3/Conv_output_0: 3c9bdcf6
/body/stage2/stage2.5/stage2.5.5/LeakyRelu_output_0: 3c46e93a
/body/stage3/stage3.0/stage3.0.0/Conv_output_0: 3d10e7ea
/body/stage3/stage3.0/stage3.0.2/LeakyRelu_output_0: 3c9c0633
/body/stage3/stage3.0/stage3.0.3/Conv_output_0: 3c9aa278
/body/stage3/stage3.0/stage3.0.5/LeakyRelu_output_0: 3c2014bc
/body/stage3/stage3.1/stage3.1.0/Conv_output_0: 3d01b09d
/body/stage3/stage3.1/stage3.1.2/LeakyRelu_output_0: 3c9554cb
/body/stage3/stage3.1/stage3.1.3/Conv_output_0: 3e131f93
/body/stage3/stage3.1/stage3.1.5/LeakyRelu_output_0: 3dbad6e9
/fpn/output1/output1.0/Conv_output_0: 3da39a82
/fpn/output1/output1.2/LeakyRelu_output_0: 3d243749
/fpn/output2/output2.0/Conv_output_0: 3d7c58c1
/fpn/output2/output2.2/LeakyRelu_output_0: 3d1212c8
/fpn/output3/output3.0/Conv_output_0: 3d547fb8
/fpn/output3/output3.2/LeakyRelu_output_0: 3d12c094
/fpn/Resize_output_0: 3d2116ec
/fpn/Add_output_0: 3d68d820
/fpn/merge2/merge2.0/Conv_output_0: 3d683bd4
/fpn/merge2/merge2.2/LeakyRelu_output_0: 3d27c5de
/fpn/Resize_1_output_0: 3d27c5de
/fpn/Add_1_output_0: 3d76523b
/fpn/merge1/merge1.0/Conv_output_0: 3d59e77d
/fpn/merge1/merge1.2/LeakyRelu_output_0: 3d022a0b
/ssh1/conv3X3/conv3X3.0/Conv_output_0: 3d80e637
/ssh1/conv5X5_1/conv5X5_1.0/Conv_output_0: 3d56fa42
/ssh1/conv5X5_1/conv5X5_1.2/LeakyRelu_output_0: 3d06cbe5
/ssh1/conv5X5_2/conv5X5_2.0/Conv_output_0: 3d6eb095
/ssh1/conv7X7_2/conv7X7_2.0/Conv_output_0: 3d5ca7cf
/ssh1/conv7X7_2/conv7X7_2.2/LeakyRelu_output_0: 3d196cdc
/ssh1/conv7x7_3/conv7x7_3.0/Conv_output_0: 3d80cb7d
/ssh1/Concat_output_0: 3d77ad5c
/ssh1/Relu_output_0: 3d80cb7d
/ssh2/conv3X3/conv3X3.0/Conv_output_0: 3d850be1
/ssh2/conv5X5_1/conv5X5_1.0/Conv_output_0: 3d378411
/ssh2/conv5X5_1/conv5X5_1.2/LeakyRelu_output_0: 3d10fda2
/ssh2/conv5X5_2/conv5X5_2.0/Conv_output_0: 3d7eaa25
/ssh2/conv7X7_2/conv7X7_2.0/Conv_output_0: 3d72cb98
/ssh2/conv7X7_2/conv7X7_2.2/LeakyRelu_output_0: 3d247553
/ssh2/conv7x7_3/conv7x7_3.0/Conv_output_0: 3d91f1bb
/ssh2/Concat_output_0: 3d8b4d4d
/ssh2/Relu_output_0: 3d8fef89
/ssh3/conv3X3/conv3X3.0/Conv_output_0: 3d61b4a6
/ssh3/conv5X5_1/conv5X5_1.0/Conv_output_0: 3d6a94b1
/ssh3/conv5X5_1/conv5X5_1.2/LeakyRelu_output_0: 3d1cf2d8
/ssh3/conv5X5_2/conv5X5_2.0/Conv_output_0: 3d789dd6
/ssh3/conv7X7_2/conv7X7_2.0/Conv_output_0: 3d6a2130
/ssh3/conv7X7_2/conv7X7_2.2/LeakyRelu_output_0: 3d1bdf43
/ssh3/conv7x7_3/conv7x7_3.0/Conv_output_0: 3d927e59
/ssh3/Concat_output_0: 3d8c1669
/ssh3/Relu_output_0: 3d8c1669
/BboxHead.0/conv1x1/Conv_output_0: 3d414bb9
/BboxHead.0/Transpose_output_0: 3d414bb9
/BboxHead.0/Reshape_output_0: 3d414bb9
/BboxHead.1/conv1x1/Conv_output_0: 3daaa6b9
/BboxHead.1/Transpose_output_0: 3daaa6b9
/BboxHead.1/Reshape_output_0: 3daaa6b9
/BboxHead.2/conv1x1/Conv_output_0: 3d75142c
/BboxHead.2/Transpose_output_0: 3d75142c
/BboxHead.2/Reshape_output_0: 3d75142c
output: 3d9a518a
/ClassHead.0/conv1x1/Conv_output_0: 3d96849e
/ClassHead.0/Transpose_output_0: 3d96849e
/ClassHead.0/Reshape_output_0: 3d96849e
/ClassHead.1/conv1x1/Conv_output_0: 3dd71ac6
/ClassHead.1/Transpose_output_0: 3dd71ac6
/ClassHead.1/Reshape_output_0: 3dd71ac6
/ClassHead.2/conv1x1/Conv_output_0: 3da799a0
/ClassHead.2/Transpose_output_0: 3da799a0
/ClassHead.2/Reshape_output_0: 3da799a0
532: 3dc58d29
/LandmarkHead.0/conv1x1/Conv_output_0: 3df48d4c
/LandmarkHead.0/Transpose_output_0: 3df48d4c
/LandmarkHead.0/Reshape_output_0: 3df48d4c
/LandmarkHead.1/conv1x1/Conv_output_0: 3e425982
/LandmarkHead.1/Transpose_output_0: 3e425982
/LandmarkHead.1/Reshape_output_0: 3e425982
/LandmarkHead.2/conv1x1/Conv_output_0: 3e081c43
/LandmarkHead.2/Transpose_output_0: 3e081c43
/LandmarkHead.2/Reshape_output_0: 3e081c43
561: 3e2128c6
